#ifndef __HX83102P_PARAM_H__
#define __HX83102P_PARAM_H__
#include <linux/types.h>
#include <linux/kernel.h>

#define EXTEND_BRIGHTNESS	306
#define UI_MAX_BRIGHTNESS	255
#define UI_DEFAULT_BRIGHTNESS	128

struct lcd_seq_info {
	const unsigned char	*cmd;
	unsigned int	len;
	unsigned int	sleep;
};

static const unsigned char SEQ_SET_B9_PW[] = {
	0xB9,
	0x83, 0x10, 0x2E,
};

static const unsigned char SEQ_SET_B9_CLOSE_PW[] = {
	0xB9,
	0x00, 0x00, 0x00,
};

static const unsigned char SEQ_SET_D5_GIP_FORWARD[] = {
	0xD5,
	0x07, 0x06, 0x07, 0x06, 0x05, 0x04, 0x05, 0x04,
	0x21, 0x20, 0x21, 0x20, 0x23, 0x22, 0x23, 0x22,
	0x18, 0x18, 0x18, 0x18, 0x39, 0x39, 0x39, 0x39,
	0x01, 0x00, 0x01, 0x00, 0x03, 0x02, 0x03, 0x02,
	0x38, 0x38, 0x38, 0x38, 0x38, 0x38, 0x38, 0x38,
	0x18, 0x18, 0x18, 0x18,

};

static const unsigned char SEQ_SET_D6_GIP_BACKWARD[] = {
	0xD6,
	0x00, 0x01, 0x00, 0x01, 0x02, 0x03, 0x02, 0x03,
	0x22, 0x23, 0x22, 0x23, 0x20, 0x21, 0x20, 0x21,
	0x38, 0x38, 0x38, 0x38, 0x39, 0x39, 0x39, 0x39,
	0x06, 0x07, 0x06, 0x07, 0x04, 0x05, 0x04, 0x05,
	0x38, 0x38, 0x38, 0x38, 0x18, 0x18, 0x18, 0x18,
	0x18, 0x18, 0x18, 0x18,
};

static const unsigned char SEQ_SET_B4_TIMING[] = {
	0xB4,
	0x98, 0x74, 0x01, 0x01, 0x98, 0x74, 0x68, 0x50,
	0x01, 0xA0, 0x01, 0x58, 0x00, 0xFF, 0x00, 0xFF,
};

static const unsigned char SEQ_SET_D3_GIP0[] = {
	0xD3,
	0x00, 0x00, 0x00, 0x00, 0x01, 0x04, 0x00, 0x14,
	0x0C, 0x27, 0x27, 0x23, 0x2F, 0x23, 0x23, 0x04,
	0x04, 0x32, 0x10, 0x21, 0x00, 0x21, 0x32, 0x10,
	0x02, 0x00, 0x02, 0x32, 0x10, 0x10, 0x00, 0x10,
	0x00, 0x00, 0x21, 0x38, 0x01, 0x55, 0x21, 0x38,
	0x01, 0x55,
};

static const unsigned char SEQ_SET_D1_TP_CTRL[] = {
	0xD1,
	0x37, 0x0C, 0xFF,
};

static const unsigned char SEQ_SET_B1_POWER[] = {
	0xB1,
	0x20, 0xFA, 0xAF, 0xAF, 0x27, 0x27, 0xB2, 0x57,
	0x57, 0x36, 0x36, 0x36, 0x36, 0x22, 0x21, 0x15,
	0x00,
};

static const unsigned char SEQ_SET_B2_RESOLUTION[] = {
	0xB2,
	0x00, 0xB0, 0x47, 0x80, 0x00, 0x26, 0x5E, 0x2C,
};

static const unsigned char SEQ_SET_E0_ANALOG_GAMMA[] = {
	0xE0,
	0x00, 0x04, 0x0B, 0x11, 0x17, 0x23, 0x38, 0x3E,
	0x42, 0x3E, 0x57, 0x5B, 0x5F, 0x6C, 0x69, 0x71,
	0x7C, 0x91, 0x93, 0x4B, 0x54, 0x61, 0x73, 0x00,
	0x04, 0x0B, 0x11, 0x17, 0x23, 0x38, 0x3E, 0x42,
	0x3E, 0x57, 0x5B, 0x5F, 0x6C, 0x69, 0x71, 0x7C,
	0x91, 0x93, 0x4B, 0x54, 0x61, 0x73,
};

static const unsigned char SEQ_SET_C0_GAMMA_OPT[] = {
	0xC0,
	0x23, 0x23, 0x22, 0x11, 0xA2, 0x00, 0x00, 0x80,
	0x00, 0x00, 0x08, 0x00, 0x22, 0x22,
};

static const unsigned char SEQ_SET_CC_NORMALLY_BLACK[] = {
	0xCC,
	0x02,
};

static const unsigned char SEQ_SET_C8_CP[] = {
	0xC8,
	0x00, 0x04, 0x04, 0x00, 0x00, 0x82,
};

static const unsigned char SEQ_SET_BB_OTP_SETTING[] = {
	0xBB,
	0x00, 0x00, 0x00, 0x00, 0x00, 0xFF, 0x00, 0x00,
	0x05, 0x00, 0x04, 0xAB, 0x01,
};

static const unsigned char SEQ_SET_BF_GAS[] = {
	0xBF,
	0xFC, 0x85, 0x80,
};

static const unsigned char SEQ_SET_D0_CASCADE[] = {
	0xD0,
	0x07, 0x04,	0x01,
};

static const unsigned char SEQ_SET_BD_BANK01[] = {
	0xBD,
	0x01,
};

static const unsigned char SEQ_SET_D3_GIP1[] = {
	0xD3,
	0x01, 0x00, 0xFC, 0x00, 0x00, 0x11, 0x10,
};

static const unsigned char SEQ_SET_CB_OSC_PLL[] = {
	0xCB,
	0xF4, 0x36, 0x12, 0x16, 0xC0, 0x28, 0x6C, 0x85,
	0x3F, 0x04,
};

static const unsigned char SEQ_SET_BD_BANK02[] = {
	0xBD,
	0x02,
};

static const unsigned char SEQ_SET_B4_GAMMA_BIAS[] = {
	0xB4,
	0x43,
};

static const unsigned char SEQ_SET_BF_VCOM[] = {
	0xBF,
	0xF2,
};

static const unsigned char SEQ_SET_D8_GIP[] = {
	0xD8,
	0xFF, 0xFF, 0xFF, 0xFF, 0xFF, 0xF0, 0xFF, 0xFF,
	0xFF, 0xFF, 0xFF, 0xF0,
};

static const unsigned char SEQ_SET_BD_BANK00[] = {
	0xBD,
	0x00,
};

static const unsigned char SEQ_SET_E7_TOUCH_SET1[] = {
	0xE7,
	0x12, 0x13, 0x02, 0x02, 0x51, 0x00, 0x0E, 0x0E,
	0x00, 0x28, 0x2A, 0x7A, 0x1B, 0x7A, 0x01, 0x01,
	0x00, 0x00, 0x00, 0x00, 0x57, 0x00,
};

static const unsigned char SEQ_SET_E7_TOUCH_SET2[] = {
	0xE7,
	0x02, 0x35, 0x01, 0x8B, 0x0D, 0xDD, 0x0E,
};

static const unsigned char SEQ_SET_E7_TOUCH_SET3[] = {
	0xE7,
	0xFF, 0x01, 0xFD, 0x01, 0x00, 0x00, 0x02, 0x00,
	0x00,
};

static const unsigned char SEQ_SLEEP_OUT[] = {
	0x11,
};

static const unsigned char SEQ_DISPLAY_ON[] = {
	0x29,
};

static const unsigned char SEQ_DISPLAY_OFF[] = {
	0x28,
	0x00, 0x00
};

static const unsigned char SEQ_SLEEP_IN[] = {
	0x10,
	0x00, 0x00
};

static const unsigned char SEQ_HX83102P_BL[] = {
	0x51,
	0x00, 0x00,
};

static const unsigned char SEQ_HX83102P_BLON[] = {
	0x53,
	0x2C,
};

static const unsigned char SEQ_HX83102P_BL_PWM_PREQ[] = {
	0xC9,
	0x34, 0x10, 0x00,
};

static const unsigned char SEQ_HX83102P_BL_PAD[] = {
	0xD9,
	0x02,
};


/* platform brightness <-> bl reg */
static unsigned int brightness_table[EXTEND_BRIGHTNESS + 1] = {
	0,
	20, 27, 35, 42, 50, 57, 65, 72, 80, 88,	/* 1: 20 */
	95, 103, 110, 118, 125, 133, 140, 148, 156, 163,
	171, 178, 186, 193, 201, 208, 216, 224, 231, 239,
	246, 254, 261, 269, 277, 284, 292, 299, 307, 314,
	322, 329, 337, 345, 352, 360, 367, 375, 382, 390,
	397, 405, 413, 420, 428, 435, 443, 450, 458, 465,
	473, 481, 488, 496, 503, 511, 518, 526, 534, 541,
	549, 556, 564, 571, 579, 586, 594, 602, 609, 617,
	624, 632, 639, 647, 654, 662, 670, 677, 685, 692,
	700, 707, 715, 722, 730, 738, 745, 753, 760, 768,
	775, 783, 791, 798, 806, 813, 821, 828, 836, 843,
	851, 859, 866, 874, 881, 889, 896, 904, 911, 919,
	927, 934, 942, 949, 957, 964, 972, 980, 991, 1002,	/* 128: 980 */
	1014, 1025, 1037, 1048, 1060, 1071, 1083, 1094, 1105, 1117,
	1128, 1140, 1151, 1163, 1174, 1186, 1197, 1208, 1220, 1231,
	1243, 1254, 1266, 1277, 1289, 1300, 1312, 1323, 1334, 1346,
	1357, 1369, 1380, 1392, 1403, 1415, 1426, 1437, 1449, 1460,
	1472, 1483, 1495, 1506, 1518, 1529, 1540, 1552, 1563, 1575,
	1586, 1598, 1609, 1621, 1632, 1644, 1655, 1666, 1678, 1689,
	1701, 1712, 1724, 1735, 1747, 1758, 1769, 1781, 1792, 1804,
	1815, 1827, 1838, 1850, 1861, 1873, 1884, 1895, 1907, 1918,
	1930, 1941, 1953, 1964, 1976, 1987, 1998, 2010, 2021, 2033,
	2044, 2056, 2067, 2079, 2090, 2101, 2113, 2124, 2136, 2147,
	2159, 2170, 2182, 2193, 2205, 2216, 2227, 2239, 2250, 2262,
	2273, 2285, 2296, 2308, 2319, 2330, 2342, 2353, 2365, 2376,
	2388, 2399, 2411, 2422, 2434, 2434, 2434, 2434, 2434, 2434,	/* 255: 2434 */
	2434, 2434, 2434, 2434, 2434, 2434, 2434, 2434, 2434, 2434,
	2434, 2434, 2434, 2434, 2434, 2434, 2434, 2434, 2434, 2434,
	2434, 2434, 2434, 2434, 2434, 2434, 2434, 2434, 2434, 2434,
	2434, 2434, 2434, 2434, 2434, 2434, 2434, 2434, 2434, 2434,
	2434, 2434, 2434, 2434, 2434, 2840,
};
#endif /* __HX83102P_PARAM_H__ */
